#include "network_data.h"

ai_handle ai_network_data_weights_get(void)
{

  AI_ALIGNED(4)
  static const ai_u8 s_network_weights[ 6344 ] = {
    0xa5, 0xc0, 0x19, 0x3b, 0x42, 0xcf, 0xb0, 0x3a, 0x67, 0xe9,
    0x6e, 0x3a, 0x17, 0x33, 0x0f, 0xba, 0xf8, 0xbf, 0x85, 0xba,
    0xba, 0x29, 0xc3, 0xba, 0xa6, 0x99, 0x7c, 0xba, 0x21, 0xff,
    0x53, 0xba, 0x6a, 0x3d, 0xa4, 0xba, 0xf1, 0x38, 0xc1, 0xba,
    0x13, 0xa3, 0xb4, 0xba, 0x45, 0x22, 0x40, 0xb9, 0xb1, 0xf5,
    0x0f, 0x39, 0x2b, 0x48, 0xcd, 0xb9, 0x06, 0xf3, 0x0e, 0xbb,
    0x56, 0x84, 0xa8, 0xba, 0xbc, 0xdf, 0x87, 0xba, 0x54, 0xeb,
    0xa1, 0xba, 0x2f, 0x40, 0xf0, 0xba, 0xbd, 0xd1, 0x33, 0xbb,
    0xd6, 0xa6, 0x24, 0xbb, 0x56, 0x76, 0x8a, 0xbb, 0xdc, 0x79,
    0x81, 0xbb, 0x9b, 0xdd, 0x05, 0xbb, 0xd2, 0x54, 0x03, 0xbb,
    0x9f, 0xa1, 0x44, 0xbb, 0xa6, 0x2f, 0x32, 0xbb, 0x42, 0x46,
    0xdd, 0xba, 0xbd, 0x3e, 0xf7, 0x38, 0x9e, 0xb3, 0x77, 0x3a,
    0xb6, 0x89, 0x5d, 0x3b, 0x7c, 0x6c, 0x6a, 0x3b, 0x76, 0xd5,
    0x89, 0x3b, 0x0a, 0xb5, 0xb9, 0x3b, 0x3d, 0x85, 0x96, 0x3b,
    0x7b, 0xd1, 0x98, 0x3b, 0x81, 0xc2, 0x9d, 0x3b, 0x9b, 0x95,
    0xa3, 0x3b, 0x28, 0x18, 0x80, 0x3b, 0xf3, 0x67, 0xd5, 0x3a,
    0x3f, 0xcb, 0x35, 0xba, 0x59, 0x60, 0x42, 0xbb, 0xd9, 0xd2,
    0xeb, 0xbb, 0xa7, 0xf4, 0xbb, 0x3b, 0xc0, 0xa6, 0xf1, 0x3b,
    0xa2, 0x7c, 0x01, 0x3c, 0xef, 0xd4, 0xfa, 0x3b, 0xb7, 0x40,
    0x03, 0x3c, 0x9f, 0xdd, 0xbb, 0x3b, 0x2e, 0x73, 0x70, 0x3b,
    0x54, 0x94, 0xa3, 0xb8, 0x33, 0xc3, 0x23, 0xbb, 0xce, 0xac,
    0x32, 0xbb, 0xd2, 0x77, 0x9e, 0xbb, 0xc0, 0x05, 0x94, 0xbb,
    0x07, 0xd3, 0x8a, 0xbb, 0x1a, 0x30, 0x15, 0xbb, 0xb4, 0x6d,
    0xb9, 0xba, 0xff, 0x81, 0xbb, 0xba, 0x21, 0x7c, 0xd3, 0x39,
    0xfd, 0x16, 0x0b, 0x3a, 0x10, 0xec, 0x99, 0x39, 0x5e, 0x17,
    0x6c, 0x3a, 0xf9, 0x90, 0x81, 0xba, 0x48, 0xeb, 0x1e, 0xbb,
    0x5c, 0xa8, 0x3a, 0xbb, 0x2f, 0xdb, 0x7f, 0xbb, 0xca, 0xd7,
    0x68, 0xbb, 0x47, 0x8d, 0x3f, 0xbb, 0x6e, 0x0b, 0xdf, 0xba,
    0xa3, 0x0f, 0xc9, 0xb9, 0x03, 0xe7, 0x68, 0xba, 0x43, 0xb9,
    0xab, 0xba, 0x8b, 0xf2, 0x84, 0xb9, 0x1b, 0xf3, 0x0d, 0xba,
    0xbd, 0xa8, 0x8e, 0x3a, 0xa1, 0x2c, 0x11, 0x3b, 0x7e, 0xcf,
    0x40, 0x3b, 0xf8, 0xb5, 0x6e, 0x3b, 0x5a, 0x80, 0x56, 0x3b,
    0x5a, 0x05, 0xe1, 0x3a, 0x6e, 0x98, 0x90, 0x3a, 0xbe, 0x9c,
    0xa5, 0x3a, 0xe0, 0xad, 0xbe, 0x3a, 0x92, 0x39, 0xc2, 0x3a,
    0x7a, 0xfc, 0x2a, 0x3a, 0x39, 0xba, 0x2a, 0xbb, 0x6d, 0x87,
    0x31, 0xbb, 0x75, 0xa0, 0x84, 0xba, 0x2d, 0x26, 0x5a, 0x3a,
    0x31, 0x44, 0x19, 0x3a, 0xe3, 0xe8, 0x0d, 0x3b, 0xd4, 0xb7,
    0x2a, 0x3b, 0x4b, 0x7a, 0x25, 0x3b, 0xfc, 0x2f, 0x58, 0x3b,
    0xaf, 0x54, 0x5b, 0x3b, 0x5a, 0xf2, 0x0e, 0x3b, 0x67, 0x3e,
    0xef, 0x3a, 0xc2, 0x59, 0xb3, 0x3a, 0xf8, 0x30, 0xa6, 0x39,
    0x14, 0x0a, 0x9a, 0xb8, 0xcf, 0x09, 0x05, 0xbb, 0x76, 0x55,
    0x1f, 0xbb, 0x41, 0x57, 0x27, 0xbb, 0x0f, 0xeb, 0x1e, 0xbb,
    0x28, 0x48, 0x9c, 0xba, 0xe1, 0x45, 0x99, 0x3a, 0xe1, 0x80,
    0xc8, 0x3a, 0x78, 0xd7, 0x18, 0x3b, 0xf7, 0x64, 0x0d, 0x3a,
    0x37, 0x29, 0x89, 0x3a, 0x2c, 0x7e, 0x02, 0x3b, 0xfc, 0x9c,
    0x19, 0x3b, 0x57, 0x37, 0x7e, 0x3a, 0x22, 0x4a, 0x81, 0xba,
    0x23, 0xca, 0x3b, 0xbb, 0x62, 0x2f, 0xaa, 0xbb, 0x92, 0x2d,
    0xbb, 0xbb, 0xad, 0x2c, 0xdf, 0xbb, 0xd2, 0xc7, 0x84, 0xbb,
    0x0d, 0x50, 0x3d, 0x39, 0x45, 0x94, 0x12, 0x3b, 0x87, 0x91,
    0x07, 0xb9, 0x23, 0xfb, 0xd1, 0xba, 0xa4, 0x75, 0x12, 0xbb,
    0xcc, 0x4c, 0x0f, 0xba, 0xc4, 0x85, 0xed, 0xb9, 0xac, 0xad,
    0xb1, 0xb9, 0xc9, 0xcc, 0x13, 0x3b, 0x93, 0xbd, 0x0c, 0x3a,
    0xf5, 0x3e, 0x65, 0xb9, 0x6a, 0xec, 0x00, 0xba, 0xe2, 0xd2,
    0x2a, 0xb9, 0xa6, 0xf7, 0x9d, 0xb9, 0x83, 0x29, 0x30, 0xba,
    0x8a, 0x22, 0x3a, 0xba, 0x22, 0xe1, 0x12, 0xba, 0x20, 0xda,
    0x44, 0xba, 0x02, 0x61, 0x90, 0xba, 0xd0, 0x15, 0xbe, 0xba,
    0x9a, 0x82, 0xdd, 0xba, 0x0e, 0x7c, 0xf7, 0xba, 0x66, 0x9d,
    0xea, 0xba, 0xae, 0xd7, 0xd6, 0xba, 0x99, 0x1a, 0xed, 0xba,
    0xf7, 0xf3, 0xbd, 0xba, 0xab, 0xce, 0x69, 0xba, 0x6b, 0xd6,
    0x8f, 0xba, 0xb7, 0x3b, 0x10, 0xba, 0xf3, 0xeb, 0xe9, 0xb9,
    0xc4, 0x91, 0x58, 0xba, 0xfa, 0x9d, 0x66, 0xb9, 0x82, 0x66,
    0x25, 0xb8, 0xe0, 0x72, 0xd9, 0xb9, 0x62, 0x76, 0x32, 0x38,
    0xe7, 0x0a, 0xda, 0xb9, 0xb2, 0xaf, 0xca, 0xb9, 0x95, 0x98,
    0x2e, 0x39, 0x97, 0xf0, 0x95, 0x39, 0xfb, 0x39, 0x45, 0x3a,
    0x1f, 0xc4, 0x61, 0x3a, 0xe3, 0xe7, 0xe9, 0x39, 0x83, 0xad,
    0x34, 0x3a, 0xa5, 0x83, 0xad, 0xb7, 0xfb, 0xaa, 0x2b, 0xba,
    0x73, 0x46, 0x2c, 0xba, 0x5a, 0x4b, 0x63, 0xba, 0x87, 0x3a,
    0x88, 0xba, 0x54, 0xfc, 0x93, 0xba, 0xd1, 0x44, 0x85, 0xba,
    0x55, 0xde, 0x53, 0xba, 0x6b, 0xa7, 0x6b, 0xba, 0xcd, 0x7b,
    0x07, 0xbb, 0xc8, 0x18, 0xbc, 0x3a, 0xfe, 0xe0, 0x90, 0x3b,
    0xcb, 0x83, 0xef, 0x3b, 0xd8, 0xaf, 0xc9, 0x3b, 0x83, 0x0d,
    0xb4, 0x3b, 0xd0, 0x7d, 0x7c, 0x3b, 0x72, 0x36, 0x89, 0xb9,
    0x45, 0xcf, 0x6e, 0xbb, 0x1c, 0x22, 0xe7, 0xb9, 0x45, 0x74,
    0x08, 0xbb, 0x00, 0x48, 0x9f, 0xbb, 0x1b, 0x3f, 0xb9, 0xbb,
    0x58, 0xda, 0x61, 0xbb, 0xd5, 0x1a, 0xc5, 0xbb, 0x15, 0x63,
    0xfc, 0xbb, 0xdc, 0xec, 0xcf, 0xbb, 0xe3, 0x51, 0x88, 0xbb,
    0x25, 0xff, 0xfd, 0x3a, 0x1b, 0x1e, 0xb1, 0x3b, 0x20, 0x90,
    0xa5, 0x3b, 0x6e, 0xa1, 0xf3, 0x3b, 0xe9, 0xb0, 0x17, 0x3c,
    0x9c, 0x62, 0x11, 0x3c, 0xdc, 0x8d, 0xec, 0x3b, 0x7b, 0x37,
    0xdd, 0x39, 0x12, 0x49, 0x09, 0xbc, 0x98, 0xb0, 0x55, 0xbc,
    0xd9, 0x2f, 0x71, 0xbc, 0x89, 0x8f, 0x6c, 0xbc, 0x85, 0x00,
    0x3d, 0xbc, 0xf8, 0x53, 0xd3, 0xbb, 0xd1, 0xbc, 0x01, 0x3a,
    0x94, 0x99, 0xa2, 0x3b, 0x8b, 0x1d, 0x22, 0x3c, 0x1a, 0xb2,
    0x56, 0x3c, 0xb3, 0xb5, 0x1d, 0x3c, 0x8b, 0x74, 0x9e, 0x3b,
    0x2b, 0x1f, 0x45, 0x3b, 0x6a, 0xb6, 0x6f, 0x38, 0xf9, 0xd9,
    0x39, 0xb8, 0x59, 0xc4, 0x25, 0xbb, 0xdc, 0x6f, 0xec, 0xbb,
    0x76, 0x2c, 0x93, 0xba, 0x64, 0x93, 0xb7, 0xba, 0x71, 0xf0,
    0x6a, 0xba, 0x8a, 0x21, 0xf9, 0xba, 0x49, 0xc1, 0x10, 0xbb,
    0xe6, 0xa4, 0x1e, 0xbb, 0x95, 0x5c, 0x1b, 0xbb, 0x8c, 0x14,
    0x09, 0xbb, 0xd4, 0xc5, 0xf9, 0xba, 0xb0, 0x74, 0xb5, 0xba,
    0xe0, 0xaa, 0xca, 0xba, 0xe0, 0x78, 0x0a, 0xbb, 0x60, 0x84,
    0xe7, 0xba, 0xce, 0xc2, 0x17, 0xba, 0x19, 0xda, 0x13, 0x3a,
    0x92, 0xe7, 0x4f, 0x3a, 0x61, 0xd8, 0x51, 0x3a, 0x8e, 0xa9,
    0x16, 0x3a, 0x3a, 0x48, 0x59, 0x3a, 0x2d, 0x44, 0x3a, 0x3a,
    0xaa, 0xc1, 0x99, 0x39, 0xaa, 0x43, 0x30, 0x3a, 0x60, 0xf6,
    0xfb, 0x38, 0x2a, 0x1e, 0xe3, 0xb8, 0x4c, 0x00, 0x84, 0xb9,
    0x32, 0xf3, 0x34, 0xba, 0xc9, 0x6f, 0xba, 0xb9, 0x17, 0xfd,
    0x5b, 0x3a, 0x8a, 0xc2, 0x34, 0x3b, 0xb6, 0x3e, 0x09, 0x3b,
    0xd9, 0x98, 0x19, 0x3b, 0x32, 0x66, 0x17, 0x3b, 0x45, 0xd5,
    0xd4, 0x3a, 0xfe, 0xd8, 0xb8, 0x3a, 0xc5, 0x71, 0x17, 0xb8,
    0x0b, 0xd6, 0xf9, 0xba, 0x83, 0x9d, 0x66, 0xbb, 0xd1, 0xab,
    0x38, 0xbb, 0xda, 0x24, 0x2c, 0xbb, 0x10, 0x7c, 0x18, 0xbb,
    0x92, 0xe4, 0x35, 0xbb, 0x2b, 0x89, 0x76, 0xbb, 0xa4, 0x2d,
    0xac, 0xbb, 0xd6, 0x88, 0x1d, 0xbc, 0x8b, 0xee, 0x25, 0xbc,
    0xdf, 0xc5, 0xf9, 0xbb, 0x20, 0x57, 0xad, 0xbb, 0x16, 0xb4,
    0xd1, 0xba, 0xe2, 0xdb, 0x1d, 0x3b, 0x57, 0x2a, 0x56, 0x3b,
    0xf9, 0x85, 0x0f, 0x3c, 0x79, 0x48, 0x73, 0x3c, 0x83, 0xa7,
    0x4d, 0x3c, 0xb6, 0x41, 0x69, 0x3c, 0xc2, 0x67, 0x4e, 0x3c,
    0x70, 0x61, 0xc5, 0x3b, 0x20, 0x53, 0x70, 0x3b, 0xaf, 0xc9,
    0xa4, 0x39, 0x51, 0x44, 0x19, 0xbb, 0xbf, 0x44, 0x0b, 0xbb,
    0xd7, 0xef, 0xeb, 0xba, 0x51, 0xb8, 0xa3, 0xba, 0x1e, 0x4e,
    0xa8, 0xba, 0xd5, 0x0b, 0xb6, 0xba, 0x50, 0xdb, 0x4d, 0xbb,
    0xd4, 0x6e, 0x43, 0xbb, 0x6c, 0x4b, 0xe2, 0xba, 0xee, 0x82,
    0xdd, 0xba, 0xa4, 0xcb, 0x36, 0xba, 0xb9, 0x34, 0x1d, 0x3a,
    0xf9, 0x8f, 0x1b, 0x3a, 0xf1, 0x1f, 0x93, 0x39, 0x65, 0x3f,
    0x6c, 0xbb, 0x77, 0x2c, 0xfc, 0xba, 0x6c, 0x66, 0x80, 0xbb,
    0x56, 0x7f, 0x87, 0xbb, 0x64, 0x02, 0x22, 0xbb, 0x9b, 0xe9,
    0x7f, 0xbb, 0x0b, 0x35, 0xa7, 0xba, 0xb2, 0x56, 0x09, 0x3a,
    0x5f, 0xe4, 0x99, 0x3a, 0xa2, 0x4c, 0xed, 0x3a, 0x08, 0xc8,
    0xee, 0x3a, 0xdf, 0xc9, 0x27, 0x3b, 0xc4, 0xa7, 0x3f, 0xba,
    0xb0, 0x69, 0x74, 0xbb, 0xd8, 0x7e, 0x7c, 0x3b, 0xab, 0x1f,
    0x55, 0x3b, 0x9a, 0xd9, 0x01, 0x3b, 0x36, 0x2d, 0xfe, 0x3a,
    0xb8, 0x42, 0x29, 0x3b, 0xf0, 0x12, 0xb3, 0x3a, 0x1f, 0x15,
    0xde, 0x39, 0x2b, 0xe9, 0xe4, 0xb9, 0xb6, 0x1b, 0xa3, 0xba,
    0xee, 0x28, 0xc8, 0xb8, 0x89, 0x01, 0x49, 0xba, 0x6f, 0x2b,
    0x32, 0xba, 0x65, 0xc4, 0x98, 0xba, 0xb6, 0xb5, 0xad, 0xba,
    0xe9, 0x83, 0x5d, 0xba, 0x92, 0xce, 0x27, 0xba, 0xcf, 0xe6,
    0x80, 0xb9, 0xa0, 0x04, 0xfb, 0xba, 0xdb, 0xe2, 0x61, 0xba,
    0x37, 0x79, 0x45, 0xba, 0xc1, 0x0d, 0xe1, 0xb8, 0x84, 0xd9,
    0x69, 0x3a, 0x19, 0x6e, 0x50, 0x3a, 0x25, 0x97, 0xfc, 0x3a,
    0xf8, 0x44, 0xb2, 0x39, 0x8d, 0x6c, 0xa4, 0xba, 0x3e, 0xe4,
    0xa6, 0xba, 0xe9, 0x03, 0xac, 0xb9, 0x84, 0xf1, 0x3d, 0x3b,
    0x5a, 0x56, 0xaa, 0x3b, 0x73, 0x45, 0xc7, 0x3b, 0xb8, 0xd6,
    0xba, 0x3b, 0x7e, 0xf9, 0x60, 0x3b, 0x69, 0x42, 0x46, 0x3a,
    0x46, 0x54, 0x36, 0xbb, 0x23, 0x62, 0xd8, 0xbb, 0xc4, 0x12,
    0xe3, 0xbb, 0x93, 0x36, 0xb8, 0xbb, 0xbc, 0x6e, 0xac, 0xbb,
    0xf0, 0x19, 0xc0, 0xbb, 0x7f, 0xa1, 0x44, 0xbb, 0x24, 0xc2,
    0x45, 0xbb, 0x9f, 0xbe, 0x00, 0xbb, 0xe8, 0xde, 0x50, 0xbd,
    0x54, 0x6b, 0x6c, 0xbd, 0xa8, 0x64, 0x6d, 0xbd, 0x18, 0xd1,
    0xd1, 0xb9, 0xdd, 0x53, 0x6f, 0xbc, 0x64, 0xf7, 0xa1, 0x3c,
    0xd2, 0x60, 0x2b, 0x3c, 0x9b, 0x25, 0xfa, 0xbc, 0xa9, 0x09,
    0x18, 0xbe, 0x2c, 0xa5, 0x11, 0x3e, 0x27, 0x4c, 0x35, 0x3e,
    0x4f, 0x25, 0x48, 0x3e, 0x79, 0xcf, 0x16, 0x3e, 0xd4, 0xf8,
    0xcb, 0xbd, 0x34, 0x4f, 0xfc, 0xbe, 0x0e, 0xbf, 0x08, 0x3f,
    0xdf, 0x11, 0xe1, 0x3e, 0xf0, 0x02, 0x70, 0x3d, 0xa8, 0xb6,
    0x9f, 0xbd, 0xf0, 0xb5, 0x9e, 0xbe, 0x46, 0xb4, 0x82, 0xbd,
    0xed, 0xcc, 0xee, 0x3e, 0x22, 0xc8, 0xd2, 0x3e, 0xa1, 0x39,
    0x61, 0x3c, 0x38, 0xc6, 0x30, 0xbe, 0xcc, 0x40, 0x5b, 0x3e,
    0x1a, 0xcd, 0xd6, 0xbe, 0x84, 0x74, 0xfe, 0x3d, 0x87, 0x43,
    0xdd, 0xbd, 0xac, 0xda, 0x1e, 0xbe, 0xa3, 0x9f, 0xd6, 0x3d,
    0x37, 0xfb, 0x5b, 0xbe, 0x12, 0x1f, 0x0c, 0x3d, 0xf3, 0x7e,
    0x23, 0x3d, 0xed, 0x59, 0x12, 0x3e, 0xda, 0xe3, 0xf1, 0xbd,
    0x85, 0xd8, 0xa9, 0x3e, 0xa3, 0xf4, 0xc7, 0xbd, 0x1a, 0x21,
    0x9e, 0xbe, 0xc8, 0xb2, 0x91, 0x3a, 0x0b, 0x90, 0x49, 0xbd,
    0x79, 0x44, 0x32, 0x3d, 0x01, 0xeb, 0x1f, 0xbe, 0xbf, 0x3a,
    0xa4, 0xbd, 0x13, 0xe9, 0x62, 0xbe, 0xf8, 0xb7, 0x35, 0xbd,
    0xa4, 0xb1, 0x3d, 0xbc, 0xb9, 0x7c, 0xa1, 0xbe, 0x53, 0xbe,
    0x1e, 0xbe, 0xec, 0xe3, 0xa3, 0x3d, 0x22, 0x00, 0x4e, 0x3e,
    0x5b, 0xc4, 0xa3, 0xbe, 0x6c, 0x2b, 0x99, 0x3e, 0xf0, 0x4c,
    0x42, 0x3e, 0x07, 0x16, 0xe8, 0xbe, 0xb9, 0x9a, 0xa1, 0xbe,
    0x63, 0x78, 0x88, 0x3e, 0xbb, 0x0d, 0x8a, 0x3c, 0x30, 0x66,
    0xbb, 0xbe, 0xfd, 0xfd, 0x28, 0x3e, 0xe4, 0xbf, 0xd8, 0xbc,
    0xd1, 0x37, 0xc7, 0x3d, 0xac, 0x91, 0x10, 0xbe, 0x45, 0x0e,
    0x6a, 0xbe, 0x55, 0x36, 0xba, 0xbd, 0x5f, 0x49, 0x92, 0xbe,
    0x3c, 0x64, 0x24, 0x3e, 0x5f, 0x92, 0xdb, 0x3e, 0x2c, 0x01,
    0xf9, 0x3e, 0x93, 0xe4, 0x82, 0xbe, 0xde, 0x9a, 0x86, 0x3e,
    0xe4, 0x5e, 0xca, 0xbe, 0xf1, 0x9c, 0xbb, 0xbe, 0xe1, 0xac,
    0xb8, 0xbc, 0x19, 0xde, 0x84, 0x3e, 0x38, 0xdc, 0xc5, 0x3e,
    0xc2, 0xf3, 0x05, 0xbf, 0xa9, 0x6b, 0x03, 0xbe, 0xe6, 0xfb,
    0x86, 0x3e, 0x75, 0x34, 0x24, 0xbe, 0x51, 0xbe, 0xd9, 0x3d,
    0x2e, 0x59, 0xe1, 0x3d, 0xd0, 0x9a, 0x39, 0xbe, 0x61, 0x3d,
    0xcd, 0x3e, 0x04, 0xff, 0x91, 0xbe, 0xd6, 0xdd, 0x00, 0x3e,
    0x6c, 0x57, 0xbb, 0x3e, 0x4e, 0xd4, 0x22, 0x3e, 0x1c, 0x04,
    0xb3, 0xbe, 0x7b, 0x5f, 0x34, 0xbd, 0x89, 0x15, 0x3a, 0x3e,
    0x28, 0xae, 0x9b, 0x3e, 0x71, 0xcc, 0x9f, 0x3e, 0xa0, 0x9b,
    0xd0, 0x3e, 0xfb, 0xf2, 0xa1, 0x3e, 0x34, 0x6b, 0x5b, 0x3e,
    0xd9, 0xf1, 0x6f, 0xbe, 0xed, 0x43, 0x94, 0xbe, 0x29, 0x32,
    0x57, 0x3b, 0xc2, 0x0a, 0xc3, 0x3e, 0xaf, 0xa8, 0x95, 0x3d,
    0xc9, 0xab, 0xca, 0xbd, 0xb7, 0x80, 0x5c, 0xbe, 0x39, 0x6f,
    0x7a, 0x3e, 0x7f, 0x59, 0x1e, 0xbd, 0xae, 0x11, 0xab, 0xbe,
    0xa0, 0x8d, 0xac, 0xbe, 0x00, 0x5e, 0x8d, 0xbe, 0x0c, 0x1b,
    0xa3, 0xbe, 0x7f, 0x8c, 0x34, 0xbd, 0x07, 0x63, 0x33, 0x3e,
    0x49, 0x46, 0xf4, 0xbd, 0x16, 0x98, 0x66, 0xbd, 0xc6, 0xb0,
    0x7b, 0xbe, 0x75, 0x6d, 0x26, 0x3d, 0x7b, 0xab, 0x1a, 0x3e,
    0x47, 0xad, 0x0a, 0xbe, 0xff, 0xdb, 0x89, 0x3e, 0x18, 0x21,
    0xa1, 0xbe, 0x3d, 0x03, 0x95, 0xbd, 0xf5, 0xd5, 0xe8, 0x3d,
    0xf0, 0x27, 0x7a, 0xbc, 0x9e, 0x08, 0x9a, 0xbe, 0x3c, 0x2c,
    0xd1, 0xbc, 0x29, 0x75, 0x5b, 0x3e, 0x44, 0xd2, 0x94, 0xbd,
    0xfe, 0xc2, 0x16, 0xbe, 0x7e, 0x5d, 0x96, 0xbe, 0x08, 0x1e,
    0xd5, 0xbd, 0xd9, 0x3a, 0xd4, 0x3e, 0x68, 0x98, 0xc3, 0xbc,
    0x8c, 0xff, 0xc0, 0xbe, 0x09, 0x0c, 0xa5, 0xbe, 0xce, 0x37,
    0x87, 0x3e, 0x58, 0x49, 0xc4, 0xbe, 0xa7, 0xd1, 0x31, 0x3e,
    0x12, 0xce, 0x0a, 0x3f, 0x00, 0x0c, 0x84, 0x3e, 0x50, 0xd4,
    0x7b, 0x3d, 0xdc, 0xec, 0x74, 0x3e, 0x1d, 0xd2, 0xe9, 0xbd,
    0x7a, 0x9a, 0x34, 0x3e, 0xfe, 0x7b, 0xc4, 0xbe, 0x7e, 0x79,
    0x0a, 0xbe, 0x64, 0xeb, 0x52, 0xbd, 0xeb, 0x57, 0xb4, 0xbd,
    0xc1, 0x81, 0x0b, 0x3e, 0x32, 0x8c, 0xba, 0xbe, 0x27, 0x51,
    0x41, 0x3e, 0x40, 0x20, 0x87, 0x3e, 0x89, 0x3f, 0x8e, 0xbe,
    0xb9, 0x2c, 0x3c, 0xbe, 0x87, 0x2c, 0x18, 0x3e, 0xed, 0x6e,
    0xce, 0x3e, 0xc0, 0xe3, 0x92, 0x3e, 0x0e, 0x88, 0x03, 0xbe,
    0xc2, 0xea, 0xc1, 0xbd, 0x6a, 0xe8, 0x46, 0x3d, 0xa3, 0xe8,
    0xe8, 0xbe, 0x28, 0x9b, 0x2c, 0x3e, 0x79, 0xfb, 0x02, 0xbe,
    0xd1, 0xd5, 0x00, 0xbe, 0xf6, 0x84, 0x55, 0x3d, 0x97, 0xc5,
    0xf8, 0x3e, 0x5a, 0x15, 0x4f, 0x3d, 0x46, 0x79, 0xba, 0xbd,
    0x88, 0x69, 0x73, 0xbe, 0x5d, 0xda, 0x04, 0x3f, 0x7b, 0xdf,
    0x8d, 0x3e, 0xdc, 0x01, 0xe0, 0xbe, 0x5b, 0xed, 0xac, 0xbe,
    0x1d, 0x68, 0xba, 0xbe, 0x82, 0xf4, 0x6b, 0xbe, 0x96, 0x19,
    0x26, 0x3e, 0x33, 0x76, 0x04, 0xbe, 0x37, 0x06, 0x8e, 0xbc,
    0xea, 0xd7, 0xbf, 0xbd, 0x95, 0x4e, 0xed, 0x3c, 0x52, 0x45,
    0xf7, 0xbe, 0x0a, 0x70, 0x12, 0xbe, 0xa6, 0x0e, 0xd9, 0xbd,
    0x81, 0x36, 0xec, 0xbc, 0xb7, 0x0d, 0x03, 0x3f, 0xbc, 0x01,
    0xbf, 0xbd, 0x83, 0xcc, 0xea, 0xbe, 0xab, 0x25, 0x96, 0x3d,
    0xb2, 0x36, 0xca, 0xbe, 0xe4, 0xaa, 0x86, 0xbe, 0xca, 0xd5,
    0x9e, 0x3e, 0xb9, 0x64, 0xbf, 0x3e, 0x55, 0xd9, 0xa4, 0x3c,
    0xaa, 0x0f, 0x6a, 0xbe, 0x8e, 0x86, 0xc4, 0x3d, 0x49, 0x89,
    0xae, 0x3e, 0xb7, 0xf2, 0x4f, 0x3e, 0xd5, 0x88, 0xba, 0xbe,
    0x43, 0x6c, 0xef, 0xbd, 0xe7, 0xc5, 0xa7, 0x3e, 0xf5, 0x77,
    0x43, 0x3e, 0x9c, 0x2d, 0xca, 0x3e, 0x4b, 0x01, 0xc6, 0x3e,
    0x85, 0x73, 0xed, 0xbe, 0x46, 0x1a, 0xf6, 0xbd, 0x97, 0x2a,
    0xec, 0x3e, 0xbb, 0x9e, 0x5f, 0x3e, 0xab, 0xb8, 0x76, 0xbe,
    0x32, 0xef, 0x88, 0x3d, 0x4e, 0x73, 0xad, 0x3e, 0x51, 0x11,
    0xa4, 0xbe, 0x1d, 0x96, 0xc8, 0x3d, 0x51, 0x6f, 0xdd, 0x3e,
    0xee, 0x64, 0x72, 0xbe, 0xfe, 0xf2, 0x4a, 0xbf, 0x89, 0x5d,
    0x98, 0xbe, 0x95, 0x63, 0x76, 0xbe, 0xbf, 0xa4, 0xb6, 0xbe,
    0x4e, 0x3f, 0x17, 0x3f, 0xc6, 0xc6, 0xd2, 0xbd, 0x21, 0xce,
    0xcb, 0x3d, 0x3a, 0xfb, 0x59, 0xbe, 0xee, 0xb3, 0x62, 0xbe,
    0x6b, 0x23, 0xb9, 0x3c, 0x6a, 0xaf, 0x06, 0x3d, 0xbe, 0xe1,
    0xd8, 0xbe, 0xe6, 0xfa, 0xf7, 0x3e, 0x43, 0x30, 0x85, 0x3e,
    0xdd, 0x89, 0x02, 0xbf, 0x76, 0xf0, 0x9e, 0xbe, 0x50, 0x9b,
    0x9d, 0xbc, 0xd3, 0xe4, 0x9b, 0x3d, 0x5b, 0x04, 0x80, 0xbe,
    0x73, 0x9b, 0xde, 0x3e, 0x0e, 0x1b, 0x4f, 0xbe, 0x6e, 0xa2,
    0x17, 0x3e, 0x6f, 0x61, 0xab, 0x3d, 0x44, 0x1c, 0xfc, 0xbe,
    0x27, 0x6e, 0x88, 0x3e, 0xe2, 0x7d, 0x1f, 0x3d, 0xb3, 0xcb,
    0x8d, 0xbd, 0x6f, 0x83, 0xcd, 0xbe, 0x7e, 0x87, 0xc8, 0xbd,
    0x42, 0x90, 0xbd, 0x3e, 0x8c, 0x31, 0xea, 0xbe, 0xb9, 0x75,
    0x2a, 0x3f, 0xdc, 0x73, 0xe2, 0x3e, 0xeb, 0x97, 0x76, 0xbe,
    0x01, 0x01, 0xe2, 0xbe, 0x7d, 0x16, 0x9f, 0x3d, 0xbf, 0xfb,
    0xff, 0x3e, 0xb8, 0x11, 0x0d, 0xbf, 0x0f, 0xd6, 0xcd, 0xbe,
    0xf5, 0x6a, 0xc6, 0x3e, 0x4f, 0xea, 0xd4, 0xbe, 0x48, 0x87,
    0xff, 0xbd, 0x2d, 0x4f, 0xa1, 0x3e, 0x5a, 0x1b, 0xdd, 0xbd,
    0x74, 0x8d, 0xad, 0xbc, 0x72, 0x01, 0x0a, 0x3c, 0xc1, 0x09,
    0x7d, 0xbe, 0xb6, 0x19, 0x39, 0xbe, 0x0b, 0x46, 0xc1, 0xbd,
    0xe2, 0xbe, 0xc5, 0x3e, 0x6a, 0xcd, 0x31, 0x3e, 0xf4, 0xc0,
    0x0b, 0xbf, 0x37, 0x55, 0xae, 0x3e, 0x34, 0x02, 0x8c, 0xbe,
    0x12, 0x11, 0xb1, 0x3e, 0x79, 0x3f, 0x1c, 0xbe, 0x90, 0xf1,
    0x98, 0x3e, 0xdf, 0x84, 0x7a, 0x3e, 0xeb, 0x35, 0x18, 0xbf,
    0xc9, 0xe3, 0xbb, 0xbe, 0x17, 0x15, 0x2a, 0x3f, 0x03, 0x2b,
    0x59, 0xbe, 0xf4, 0xa5, 0xe5, 0x3d, 0xa8, 0x17, 0xeb, 0xbe,
    0x75, 0xc1, 0xc4, 0xbc, 0xe4, 0x3f, 0xc3, 0xbe, 0x1d, 0x99,
    0x89, 0xbd, 0xed, 0xaa, 0xd2, 0xbe, 0x56, 0x82, 0x17, 0xbd,
    0x3d, 0x7c, 0xfb, 0x3d, 0xd2, 0xf0, 0xd0, 0xbe, 0x40, 0x3e,
    0x5e, 0x3e, 0xbe, 0x2a, 0xd7, 0x3c, 0xa1, 0xd4, 0xce, 0x3d,
    0x57, 0xb5, 0xa7, 0x3d, 0xa0, 0xfa, 0xf7, 0x3e, 0x9d, 0xe4,
    0xa6, 0x3d, 0xbc, 0x85, 0xea, 0xbe, 0x3e, 0x48, 0x1b, 0x3e,
    0xd6, 0x13, 0xa1, 0x3e, 0x1f, 0xad, 0x0b, 0x3e, 0xcc, 0xc7,
    0x41, 0xbe, 0xbd, 0x0b, 0xa6, 0x3e, 0x80, 0xa0, 0x72, 0x3e,
    0xdc, 0xdc, 0x1c, 0xbf, 0x17, 0xfc, 0x47, 0xbe, 0xeb, 0xcc,
    0x3c, 0xbe, 0x4e, 0xcd, 0x4b, 0x3e, 0xf4, 0xbb, 0x0a, 0x3e,
    0xb7, 0x8d, 0xaa, 0x3d, 0x3b, 0x38, 0x30, 0x3f, 0x91, 0x97,
    0xb6, 0xbd, 0x8f, 0x8f, 0xbc, 0xbe, 0x2a, 0xe4, 0x99, 0x3b,
    0x6f, 0x89, 0x65, 0xbe, 0xd5, 0x6e, 0x4c, 0xbe, 0x8b, 0x09,
    0x3d, 0x3e, 0x2e, 0x57, 0x58, 0x3e, 0x3b, 0x19, 0x99, 0x3d,
    0x32, 0x8e, 0x93, 0xbe, 0x70, 0xc6, 0x46, 0xbe, 0x5c, 0x59,
    0x9c, 0x3e, 0x2d, 0xda, 0x85, 0x3d, 0xc8, 0x3c, 0xba, 0xbe,
    0xf9, 0xcb, 0x51, 0x3e, 0x1f, 0xf1, 0xe1, 0xbb, 0x89, 0x16,
    0xa3, 0xbd, 0x3b, 0x3f, 0xb5, 0x3d, 0xde, 0xfb, 0xdd, 0xbb,
    0x8a, 0x04, 0xb6, 0x3d, 0xbc, 0xd1, 0xd7, 0xbe, 0x1c, 0xd8,
    0xdd, 0xbc, 0x26, 0xe0, 0x10, 0xbe, 0x27, 0x29, 0x48, 0xbd,
    0x3c, 0x2f, 0xa7, 0x3d, 0x77, 0x8f, 0x24, 0xbd, 0xc6, 0x7c,
    0x0b, 0xbe, 0x48, 0xc2, 0x31, 0x3e, 0xb7, 0x89, 0xb9, 0xbd,
    0xb9, 0x51, 0xe6, 0x3e, 0x41, 0xc8, 0x91, 0x3e, 0x6b, 0x1c,
    0xb2, 0xbe, 0x91, 0x83, 0x1b, 0x3e, 0x34, 0x2f, 0xe7, 0x3d,
    0x6c, 0xb3, 0x0c, 0x3f, 0xa0, 0xb1, 0x26, 0x3d, 0xa3, 0x3c,
    0xaa, 0x3e, 0xff, 0xfd, 0xb5, 0x3e, 0xca, 0x75, 0x00, 0xbf,
    0x2f, 0x2f, 0x29, 0xbf, 0xdc, 0xa7, 0xd4, 0xbe, 0xb4, 0x73,
    0x71, 0x3e, 0x88, 0xd0, 0x19, 0xbd, 0xbd, 0xc1, 0xd0, 0x3d,
    0x47, 0xe1, 0x02, 0xbf, 0x53, 0x75, 0x93, 0x3e, 0x9e, 0xbe,
    0x83, 0xbe, 0x51, 0x96, 0x2b, 0x3e, 0xbb, 0x53, 0xf8, 0xbd,
    0xbd, 0x19, 0xb3, 0xbd, 0xeb, 0x09, 0xa7, 0x3e, 0xc7, 0xe3,
    0xce, 0x3d, 0x67, 0xc2, 0xec, 0x3c, 0x76, 0xb8, 0x81, 0xbe,
    0x1b, 0x1e, 0x9e, 0xbe, 0x3b, 0xaa, 0xd6, 0x3e, 0x36, 0x6b,
    0x33, 0xbd, 0x4e, 0xc0, 0xc2, 0x3d, 0x61, 0x57, 0x6b, 0xbe,
    0xd2, 0xc8, 0xf7, 0xbd, 0xa3, 0x7b, 0x64, 0xbb, 0x7c, 0x8e,
    0xb7, 0x3d, 0x02, 0xbe, 0xfd, 0x3c, 0xcf, 0xfc, 0xab, 0xbd,
    0x26, 0x85, 0xef, 0xbc, 0xfb, 0x6c, 0x23, 0x3e, 0xba, 0xcd,
    0x8d, 0xbd, 0x54, 0x88, 0x43, 0x3d, 0x6f, 0x2b, 0xfc, 0xbd,
    0x88, 0xf1, 0xb8, 0xbc, 0x36, 0xb6, 0x80, 0xbe, 0xe7, 0x8b,
    0x53, 0xbe, 0x50, 0xec, 0x8b, 0x3d, 0xe6, 0xa8, 0x97, 0xbd,
    0x8d, 0x26, 0x8a, 0x3e, 0x40, 0xb0, 0x7b, 0x3e, 0x1e, 0xb3,
    0x17, 0xbe, 0x65, 0x91, 0xb5, 0xbe, 0xa1, 0x78, 0xe5, 0xbe,
    0xb7, 0xf6, 0xe5, 0x3e, 0xb7, 0x99, 0x58, 0x3e, 0x2b, 0x85,
    0x18, 0xbe, 0xc4, 0xd5, 0x1f, 0xbd, 0xa2, 0x9f, 0x08, 0x3f,
    0x8e, 0xed, 0x0a, 0xbc, 0x31, 0xfd, 0x7b, 0x3e, 0xb9, 0xea,
    0x77, 0xbd, 0xd1, 0x1e, 0x6e, 0x3c, 0x63, 0xb8, 0x33, 0x3d,
    0xc0, 0x26, 0x7a, 0x3d, 0x45, 0x84, 0xfc, 0x3d, 0x90, 0xbb,
    0xa6, 0xbd, 0xe7, 0x20, 0xb2, 0xbc, 0x63, 0xf6, 0x0d, 0xbc,
    0xf1, 0xe8, 0x35, 0xbd, 0x76, 0xdb, 0xe0, 0xbb, 0x4e, 0x92,
    0x88, 0xbd, 0xea, 0xe2, 0x2d, 0x3d, 0xee, 0x6c, 0x0c, 0x3d,
    0x36, 0x9f, 0x8d, 0xbd, 0x0a, 0x8f, 0x47, 0x3d, 0x7c, 0xf2,
    0x00, 0x3e, 0xc0, 0xbe, 0xd5, 0x3c, 0x0b, 0x5d, 0x3c, 0xbd,
    0x2c, 0x78, 0xcc, 0xbd, 0xa9, 0x90, 0x0f, 0x3e, 0xf9, 0x0f,
    0x80, 0xbe, 0x44, 0x10, 0x8c, 0xbe, 0x16, 0x98, 0x25, 0x3e,
    0x89, 0xcf, 0x6b, 0x3d, 0x63, 0x7c, 0x7a, 0xbd, 0x51, 0x7d,
    0xbc, 0xbd, 0x51, 0x9a, 0x07, 0x3e, 0x92, 0xb8, 0x2b, 0x3e,
    0xda, 0x6a, 0x91, 0x3c, 0x62, 0xd5, 0xab, 0xbd, 0xd7, 0x05,
    0x01, 0x3e, 0x9d, 0x29, 0x95, 0x3d, 0xb5, 0xa8, 0xee, 0xbc,
    0x68, 0xdc, 0x6c, 0xbc, 0x0a, 0x7d, 0x15, 0x3e, 0x7e, 0xae,
    0x3e, 0x3d, 0xec, 0x6d, 0x37, 0x3c, 0x74, 0x6f, 0x18, 0x3e,
    0xfa, 0x86, 0x8c, 0xbe, 0x2b, 0xed, 0x51, 0x3e, 0x4e, 0x62,
    0x00, 0xb8, 0xb1, 0x12, 0x99, 0xbe, 0x84, 0xd1, 0x9c, 0xbe,
    0x6e, 0xaf, 0x73, 0x3c, 0xdc, 0xfc, 0x01, 0x3f, 0xbb, 0x4c,
    0x58, 0x3e, 0x91, 0x11, 0x6a, 0x3b, 0x0b, 0xde, 0x14, 0xbe,
    0x02, 0x52, 0x31, 0xbe, 0x49, 0x4f, 0xa5, 0x3d, 0x96, 0xa3,
    0xd2, 0xbd, 0x27, 0x40, 0x93, 0x3e, 0x2d, 0xc3, 0x43, 0x3e,
    0x49, 0x2c, 0x63, 0x3e, 0x97, 0x6a, 0x13, 0x3e, 0x8e, 0x22,
    0xba, 0xbd, 0x69, 0xf2, 0x3f, 0xbe, 0x8a, 0x14, 0x56, 0x3e,
    0xf1, 0x3e, 0x80, 0xbe, 0xa4, 0x44, 0x03, 0xbe, 0x57, 0xc7,
    0x5a, 0x3f, 0x6f, 0xcf, 0x01, 0x3e, 0xe7, 0xf3, 0x87, 0x3e,
    0x25, 0x6e, 0xfc, 0xbe, 0x89, 0x49, 0x99, 0xbd, 0x35, 0xaa,
    0x83, 0xbd, 0xe9, 0x17, 0xe6, 0xbe, 0x9f, 0x96, 0x85, 0xbe,
    0xe8, 0x40, 0xe4, 0x3d, 0x22, 0x83, 0xaa, 0xbe, 0x08, 0x75,
    0x6f, 0xbe, 0x34, 0xc2, 0x51, 0x3e, 0xdf, 0xda, 0x3a, 0x3d,
    0xc4, 0x10, 0x81, 0xbe, 0xa9, 0xf3, 0x83, 0xbe, 0x67, 0xa8,
    0xc9, 0x3e, 0x46, 0x1a, 0x4a, 0xbe, 0x84, 0xc6, 0x8c, 0x3d,
    0x73, 0x40, 0x6b, 0x3e, 0xa4, 0x7c, 0x00, 0x3e, 0x80, 0x81,
    0x7b, 0x3c, 0x5b, 0x3a, 0x48, 0xbe, 0x31, 0x1a, 0xeb, 0xbe,
    0xcc, 0x1c, 0x99, 0x3e, 0x90, 0x26, 0x6c, 0x3e, 0x5d, 0xfc,
    0x75, 0x3e, 0x42, 0x95, 0x1b, 0xbe, 0x52, 0x19, 0x8b, 0xbe,
    0xb0, 0xc5, 0x1c, 0xbe, 0x11, 0x52, 0x3d, 0x3e, 0x49, 0x9b,
    0xf4, 0x3d, 0xb6, 0xcb, 0x83, 0x3d, 0x14, 0x7f, 0xe6, 0xbd,
    0x95, 0x95, 0x6f, 0x3e, 0x6f, 0xff, 0x57, 0xbe, 0x5a, 0x6c,
    0xbb, 0xbd, 0x10, 0xdb, 0x8d, 0xbd, 0x56, 0x88, 0x9e, 0xbe,
    0x4c, 0x9a, 0x96, 0x3c, 0xa6, 0x79, 0x4d, 0x3c, 0x8f, 0x54,
    0x40, 0xbd, 0x42, 0xac, 0xf9, 0x3d, 0x36, 0xb6, 0x36, 0xbd,
    0xaf, 0x4d, 0x3e, 0xbd, 0x03, 0x52, 0x45, 0xbd, 0x3d, 0x13,
    0x4d, 0x3d, 0x36, 0xd4, 0x5e, 0xbd, 0x3e, 0xdd, 0x02, 0xbd,
    0xf1, 0xac, 0x4e, 0xbd, 0x2c, 0x10, 0x3c, 0x3e, 0x21, 0x35,
    0x48, 0x3d, 0x0a, 0xde, 0x0a, 0x3d, 0xf6, 0x7b, 0x9e, 0x3d,
    0x43, 0x3a, 0xad, 0x3d, 0x69, 0x1c, 0xb0, 0x3e, 0x8e, 0xbb,
    0x9b, 0xbd, 0xe3, 0x90, 0xd6, 0xbe, 0x6f, 0xa7, 0x76, 0xbe,
    0x5e, 0x31, 0xdc, 0xbd, 0x47, 0x43, 0x09, 0x3f, 0x10, 0x14,
    0x3e, 0x3f, 0x6e, 0x64, 0x34, 0xbf, 0xf5, 0xc8, 0x9b, 0xbe,
    0xba, 0x42, 0x4e, 0xbd, 0x97, 0x99, 0x87, 0x3e, 0x62, 0x70,
    0x96, 0x3c, 0x6d, 0xa3, 0x8a, 0x3e, 0x8c, 0xb5, 0x24, 0xbe,
    0x7e, 0xff, 0xe7, 0x3c, 0xc9, 0x9f, 0x9f, 0x3e, 0x08, 0xd9,
    0x85, 0xbd, 0x3b, 0x44, 0x0d, 0xbe, 0xb0, 0xed, 0xf2, 0x3e,
    0xd5, 0xdf, 0xfe, 0xbd, 0x9e, 0x94, 0x4c, 0x3d, 0x24, 0xdc,
    0xcc, 0xbd, 0xe6, 0x85, 0xde, 0xbe, 0x28, 0x0d, 0xde, 0x3d,
    0xf1, 0xd3, 0xda, 0xbe, 0x50, 0xc5, 0xa9, 0xbe, 0xb7, 0x52,
    0x31, 0xbe, 0x03, 0x9c, 0xf0, 0xbd, 0x6e, 0x68, 0xe2, 0x3d,
    0x60, 0x9e, 0xa3, 0x3e, 0xee, 0x45, 0x22, 0x3f, 0x26, 0x15,
    0xc3, 0xbe, 0x1d, 0x8e, 0x2b, 0xbe, 0xbe, 0x3f, 0x73, 0x3d,
    0x10, 0x62, 0xc3, 0x3d, 0xef, 0xc5, 0x89, 0xbe, 0x87, 0x2a,
    0xbf, 0x3e, 0x8d, 0x83, 0xfe, 0x3d, 0xa3, 0x40, 0x4a, 0xbe,
    0xe1, 0xc4, 0x3d, 0xbe, 0x46, 0x9c, 0x9a, 0xbd, 0xd5, 0x0c,
    0xdb, 0xbc, 0x72, 0xcb, 0x34, 0xbf, 0xe4, 0x94, 0xb3, 0xbd,
    0x47, 0xce, 0x37, 0x3e, 0x13, 0xd3, 0x33, 0xbe, 0x0f, 0x01,
    0xc9, 0x3e, 0x88, 0xdf, 0xed, 0x3e, 0x63, 0xbc, 0x9c, 0x3e,
    0x63, 0x0f, 0xa8, 0x3e, 0xe0, 0xb4, 0x36, 0x3c, 0x26, 0xe3,
    0xcf, 0xbd, 0x90, 0x58, 0x16, 0xbe, 0xce, 0xa3, 0xd4, 0xbd,
    0x7b, 0x2c, 0xad, 0x3d, 0xed, 0xb1, 0x0f, 0xbe, 0x6e, 0xcf,
    0x9b, 0x3d, 0x67, 0x73, 0x02, 0x3d, 0x05, 0xba, 0x02, 0x3e,
    0x12, 0xde, 0xb2, 0xbe, 0xd0, 0x94, 0xe3, 0x3e, 0xcd, 0x21,
    0x29, 0xbf, 0xcf, 0xd4, 0x81, 0xbe, 0x95, 0x84, 0x51, 0xbf,
    0x35, 0xc2, 0xad, 0x3e, 0x27, 0xbc, 0xa8, 0x3e, 0xe5, 0x51,
    0xaa, 0xbe, 0xd0, 0xc2, 0x8e, 0xbe, 0x59, 0x74, 0x8d, 0xbe,
    0xc0, 0xb8, 0x37, 0x3e, 0x68, 0x8d, 0x16, 0xbd, 0xcb, 0x25,
    0xc3, 0x3e, 0x7c, 0xaa, 0x17, 0x3e, 0x09, 0xdb, 0xbe, 0x3e,
    0xb3, 0x70, 0x06, 0x3e, 0x81, 0xa1, 0xb0, 0x3e, 0xab, 0x88,
    0x8e, 0x3e, 0x1c, 0x32, 0xe8, 0xbd, 0x9f, 0x74, 0x21, 0xbf,
    0x01, 0xc3, 0xa1, 0xbd, 0xaa, 0x85, 0xb7, 0x39, 0x68, 0x10,
    0x07, 0x3f, 0x2b, 0x3b, 0x3a, 0x3f, 0x86, 0x0d, 0xc1, 0xbe,
    0x59, 0x17, 0x44, 0x3e, 0x42, 0x89, 0xd2, 0xbe, 0xae, 0x6a,
    0x4a, 0x3d, 0xd6, 0x44, 0x28, 0xbe, 0xa0, 0x72, 0x3c, 0x3e,
    0xdf, 0x49, 0x0a, 0xbf, 0xfc, 0x4b, 0xb4, 0xbe, 0xfb, 0x04,
    0x36, 0x3f, 0xaf, 0x8d, 0xcb, 0x3e, 0xad, 0x9f, 0xc7, 0xbe,
    0xb9, 0xb4, 0x42, 0x3e, 0x1b, 0x89, 0xdd, 0xbd, 0x74, 0x8b,
    0x12, 0xbf, 0xb6, 0xe9, 0xa0, 0xbe, 0x2c, 0x37, 0xb8, 0x3e,
    0x1d, 0x34, 0xa0, 0x3d, 0xa7, 0xab, 0x6d, 0xbe, 0x8b, 0xce,
    0x01, 0x3e, 0x06, 0xc3, 0x8f, 0xbe, 0xde, 0xde, 0xdb, 0xbe,
    0xcf, 0xbe, 0x0b, 0xbd, 0x06, 0x1a, 0x93, 0x3e, 0xb0, 0x94,
    0x17, 0x3f, 0x11, 0x92, 0x0c, 0xbf, 0x6d, 0x75, 0x5b, 0xbe,
    0xeb, 0xab, 0xfa, 0x3e, 0xf8, 0x8a, 0xc4, 0x3e, 0xc0, 0x95,
    0xe3, 0xbe, 0xb2, 0xa9, 0x06, 0x3f, 0xbb, 0x7b, 0xa9, 0xbe,
    0x7c, 0x44, 0x31, 0xbd, 0x10, 0x6f, 0x7c, 0xbe, 0x60, 0x1f,
    0xbe, 0xbe, 0xd6, 0xa4, 0x7c, 0xbf, 0xac, 0xb0, 0x7f, 0xbe,
    0x9b, 0x58, 0xc7, 0xbd, 0x31, 0x97, 0x7c, 0xbf, 0xc9, 0xdd,
    0xa4, 0xbe, 0xbf, 0x0b, 0xe5, 0x3e, 0x3a, 0x99, 0x1e, 0xbe,
    0x58, 0x10, 0x63, 0xbc, 0x39, 0x7b, 0xbd, 0xbd, 0x7f, 0x46,
    0x38, 0x3e, 0x86, 0xee, 0xd9, 0xbd, 0xe7, 0xbc, 0xbc, 0xbf,
    0x1d, 0xf3, 0x3b, 0xbe, 0x65, 0x72, 0x25, 0xbf, 0x64, 0xe1,
    0xe3, 0x3e, 0x74, 0xc2, 0x80, 0x3f, 0x24, 0x8a, 0x9b, 0x3f,
    0x99, 0xcc, 0x36, 0x3f, 0xfd, 0xb0, 0x41, 0x3e, 0x26, 0xce,
    0x5b, 0x3e, 0x63, 0xd9, 0xeb, 0x3e, 0xe4, 0xab, 0x56, 0x3f,
    0x68, 0x8b, 0x3a, 0x3f, 0xbe, 0xad, 0xa5, 0x3e, 0x4d, 0x13,
    0xeb, 0x3d, 0x0b, 0x57, 0x5a, 0x3d, 0xd3, 0xa6, 0xd5, 0x3e,
    0x41, 0x7d, 0xd7, 0x3e, 0x72, 0x47, 0x65, 0x3d, 0xf9, 0x3f,
    0x09, 0xbf, 0xf3, 0x9a, 0x8a, 0x3c, 0x14, 0x28, 0x19, 0x3b,
    0x0f, 0x3e, 0x1e, 0xbf, 0x43, 0x77, 0x78, 0xbf, 0x2a, 0xf9,
    0x8e, 0xbf, 0x48, 0x09, 0x25, 0xbf, 0xfc, 0x79, 0x99, 0xbc,
    0x10, 0x88, 0x28, 0xbd, 0x4a, 0x36, 0x08, 0x3e, 0xdb, 0x19,
    0x42, 0x3e, 0x20, 0x42, 0x0c, 0x3f, 0x1b, 0x1e, 0x48, 0x3f,
    0xe2, 0x58, 0x36, 0x3f, 0x68, 0x68, 0x02, 0x3f, 0x18, 0xa0,
    0xfd, 0x3d, 0xc2, 0xa8, 0x6c, 0x3c, 0xb9, 0x3a, 0x51, 0x3f,
    0x6b, 0x12, 0x7d, 0x3f, 0xa9, 0xcc, 0x24, 0x3f, 0xe6, 0x08,
    0x28, 0x3f, 0xce, 0x73, 0x21, 0x3f, 0x95, 0x42, 0xbf, 0x3e,
    0x15, 0x70, 0xb7, 0xbe, 0xcb, 0x33, 0xec, 0xbe, 0x32, 0xe7,
    0xfe, 0xbe, 0xc6, 0xb9, 0xf5, 0xbd, 0x5f, 0xc7, 0xd5, 0x3e,
    0xec, 0x22, 0x1a, 0x3f, 0xae, 0x13, 0xd9, 0x3d, 0x1c, 0x9b,
    0x09, 0xbf, 0xbc, 0xaa, 0x4f, 0xbb, 0xb8, 0x8c, 0x44, 0x3e,
    0xbd, 0xe7, 0x04, 0x3f, 0x7c, 0x0f, 0x4f, 0x3f, 0xb7, 0x8e,
    0x92, 0x3f, 0x94, 0x48, 0x84, 0x3f, 0x1e, 0x35, 0xc7, 0x3e,
    0x4c, 0xb8, 0x6a, 0xbe, 0x2a, 0x83, 0x94, 0xbe, 0xab, 0x79,
    0x52, 0x3d, 0x23, 0xc1, 0xa4, 0x3e, 0x8e, 0x01, 0x08, 0x3f,
    0x2a, 0x73, 0xaf, 0x3e, 0x57, 0x17, 0xc3, 0x3e, 0x71, 0x66,
    0xf5, 0x3c, 0xf9, 0x0a, 0x91, 0x3e, 0xfd, 0xcc, 0x41, 0x3f,
    0x1f, 0x48, 0x3b, 0xbf, 0xb4, 0xee, 0xa9, 0xbf, 0x84, 0x3f,
    0xde, 0xbe, 0xd0, 0xd8, 0x14, 0xbe, 0xb4, 0x2d, 0x36, 0x3d,
    0x7d, 0x4f, 0xbc, 0xbe, 0xac, 0x03, 0x80, 0xbf, 0xfe, 0x57,
    0x7d, 0xbf, 0x04, 0x5f, 0xb6, 0xbe, 0x70, 0x17, 0xb8, 0xbe,
    0xd2, 0x76, 0x32, 0xbf, 0x53, 0x97, 0xc7, 0xbe, 0xe3, 0xc9,
    0x08, 0xbf, 0x53, 0xf0, 0x2a, 0xbf, 0x08, 0xf1, 0x21, 0xbf,
    0xfd, 0xf5, 0xcd, 0xbe, 0x7f, 0x26, 0x4e, 0xbf, 0xbb, 0xa8,
    0x7f, 0xbf, 0xf0, 0x14, 0x1a, 0xbf, 0x08, 0x78, 0x7f, 0x3c,
    0xc4, 0xb7, 0x06, 0x3f, 0x94, 0x36, 0x97, 0x3e, 0x03, 0x7c,
    0x11, 0x3d, 0xea, 0x74, 0xfd, 0xbe, 0xee, 0x64, 0xf7, 0xbe,
    0x17, 0x0f, 0xa2, 0xbe, 0x95, 0xe0, 0xf2, 0xbd, 0xe6, 0x71,
    0xcf, 0x3c, 0x5f, 0xaf, 0xcb, 0xbe, 0x82, 0x5e, 0x6c, 0xbf,
    0x89, 0xe6, 0x8d, 0xbf, 0x16, 0xd4, 0x71, 0xbf, 0x5a, 0x0d,
    0x1c, 0x3e, 0x5b, 0x66, 0x04, 0x3e, 0xd6, 0x10, 0xad, 0xbe,
    0x70, 0x54, 0x21, 0xbf, 0x32, 0x83, 0x8a, 0xbe, 0x40, 0x6f,
    0x6e, 0xbe, 0x54, 0xc5, 0xe7, 0xbe, 0xd4, 0xad, 0x1b, 0xbe,
    0xd0, 0xfa, 0x87, 0xbc, 0x72, 0x8a, 0x9f, 0xbe, 0x84, 0x1f,
    0xf1, 0xbe, 0xe7, 0x15, 0x08, 0xbf, 0xf1, 0xe9, 0x07, 0xbf,
    0xa4, 0x50, 0x66, 0xbf, 0xc7, 0xc4, 0x75, 0xbf, 0x66, 0x79,
    0x92, 0xbf, 0x88, 0xe0, 0x37, 0x3e, 0xf4, 0x77, 0x00, 0x3f,
    0x76, 0xad, 0x1c, 0x3f, 0x30, 0x23, 0x1b, 0x3f, 0x77, 0xaa,
    0x08, 0x3f, 0xdc, 0x24, 0x1b, 0x3e, 0x3f, 0x70, 0x7d, 0xbe,
    0x93, 0x8e, 0xab, 0xbe, 0xb3, 0xfe, 0xce, 0xbe, 0xdf, 0x15,
    0xf5, 0xbe, 0x35, 0x0b, 0xe1, 0xbe, 0xd8, 0x87, 0xf0, 0xbe,
    0x51, 0xc7, 0x9f, 0xbe, 0x24, 0x20, 0xcb, 0xbd, 0x3c, 0xc3,
    0x02, 0xbe, 0x18, 0x70, 0x5d, 0xbd, 0xe1, 0xf4, 0x73, 0xbe,
    0xe2, 0x42, 0x8c, 0x3f, 0xb0, 0x09, 0x89, 0x3f, 0xbf, 0x77,
    0xe6, 0xbd, 0xe1, 0xe3, 0x34, 0xbe, 0x6f, 0x17, 0xa6, 0x3e,
    0xfa, 0xdd, 0xdb, 0x3e, 0x4e, 0x4f, 0x20, 0x3e, 0xf7, 0x5e,
    0x25, 0xbe, 0xf2, 0x82, 0xbd, 0xbe, 0xb6, 0x61, 0xdd, 0xbe,
    0x8d, 0x47, 0x3f, 0xbe, 0x7b, 0xc5, 0x5e, 0x3d, 0xe8, 0x1a,
    0x1e, 0x3f, 0xf5, 0xba, 0x35, 0x3f, 0x89, 0xeb, 0x45, 0x3f,
    0xd6, 0x00, 0xec, 0xbe, 0x3a, 0x3b, 0x57, 0x3f, 0xbd, 0x9c,
    0xb6, 0x3f, 0x97, 0x66, 0x64, 0x3f, 0xc9, 0x65, 0x70, 0x3f,
    0x6a, 0xdb, 0x5c, 0x3f, 0x38, 0xb5, 0xf5, 0x3e, 0xe4, 0x99,
    0xc2, 0x3e, 0x16, 0x8c, 0x24, 0x3e, 0x73, 0xa7, 0xee, 0xbd,
    0x77, 0x85, 0xc3, 0xbe, 0xdc, 0xbd, 0xa6, 0xbe, 0xc3, 0x28,
    0xde, 0xbd, 0xbd, 0x26, 0x00, 0x3e, 0xd7, 0xe6, 0xb6, 0x3e,
    0xed, 0xc1, 0x9b, 0x3e, 0x2d, 0x51, 0xda, 0x3c, 0x1e, 0xd4,
    0x63, 0x3e, 0x54, 0x07, 0xc3, 0x3e, 0x14, 0xd1, 0xac, 0x3e,
    0x95, 0x99, 0x21, 0x3f, 0xf4, 0x83, 0xa6, 0x3e, 0x5a, 0x42,
    0x23, 0x3e, 0xdd, 0xdb, 0xab, 0xbd, 0x45, 0x10, 0xf4, 0x3c,
    0xc4, 0x54, 0x53, 0xbc, 0x63, 0xa1, 0x5a, 0x3d, 0x6c, 0x41,
    0x77, 0x3e, 0x2b, 0x62, 0x45, 0x3e, 0x4d, 0x1f, 0x2a, 0xbc,
    0x04, 0x0f, 0xa8, 0x3c, 0x50, 0x62, 0xae, 0x3d, 0x9d, 0xc8,
    0xf0, 0x3e, 0x37, 0x18, 0x43, 0xbe, 0x68, 0x6f, 0x0f, 0xbf,
    0x48, 0x93, 0x67, 0xbf, 0xf5, 0x62, 0x2a, 0xbf, 0xd0, 0xd9,
    0xff, 0xbe, 0x2c, 0xca, 0xa0, 0xbe, 0x19, 0xdf, 0x85, 0xbe,
    0x36, 0x1c, 0x43, 0xbe, 0xb6, 0x0f, 0x80, 0x3e, 0x23, 0x20,
    0x1a, 0x3f, 0x42, 0x92, 0x25, 0x3f, 0xd7, 0x25, 0x38, 0x3f,
    0x53, 0x6c, 0xa7, 0x3e, 0xeb, 0xfd, 0x8c, 0x3e, 0x43, 0xa4,
    0x74, 0x3e, 0xa2, 0x12, 0xf9, 0x3e, 0xbe, 0x0c, 0x00, 0x3f,
    0xd3, 0x38, 0x65, 0x3e, 0x02, 0x13, 0xb2, 0xbd, 0xd8, 0x56,
    0xf5, 0xbd, 0xe0, 0xd4, 0x95, 0xbe, 0x8c, 0x9f, 0x50, 0xbf,
    0xbf, 0x4d, 0x72, 0xbf, 0xca, 0xe6, 0x7b, 0xbf, 0x45, 0xe5,
    0x9e, 0xbf, 0x53, 0xcc, 0xf9, 0xbe, 0x10, 0x16, 0xbd, 0x3e,
    0x38, 0xaa, 0xe6, 0x3e, 0xf4, 0x73, 0x84, 0x3e, 0x40, 0xe1,
    0xae, 0xbd, 0x5c, 0x37, 0x3d, 0xbc, 0xe8, 0x8b, 0xb0, 0x3f,
    0x94, 0x9d, 0x0c, 0x3f, 0x19, 0xcf, 0x1d, 0xbd, 0x19, 0x3b,
    0xac, 0xbd, 0xb4, 0xfd, 0x3b, 0x3e, 0x2f, 0xe8, 0xea, 0x3e,
    0xb6, 0xa2, 0x76, 0x3e, 0x0c, 0xea, 0x87, 0xbe, 0x90, 0x77,
    0xb3, 0xbf, 0x35, 0xbc, 0xbb, 0xbf, 0xba, 0x1a, 0x55, 0xbd,
    0x33, 0x97, 0x3b, 0x3f, 0xcf, 0x21, 0x29, 0x3f, 0xe5, 0x75,
    0x07, 0x3f, 0xf7, 0x5e, 0xd9, 0x3e, 0x84, 0xf5, 0x1c, 0x3f,
    0xcf, 0x5f, 0xbc, 0xbe, 0x30, 0xf0, 0xb8, 0x3d, 0x68, 0x51,
    0x86, 0x3e, 0x72, 0x6b, 0x10, 0x3f, 0xd9, 0xbc, 0x24, 0x3f,
    0x82, 0x06, 0x57, 0x3f, 0x9c, 0x75, 0xcc, 0x3e, 0x0c, 0x8a,
    0x3a, 0xbc, 0x08, 0x9d, 0x8a, 0xbe, 0x74, 0xc8, 0x13, 0xbf,
    0xb5, 0x9a, 0x4e, 0xbf, 0x5f, 0x3c, 0x71, 0xbf, 0xe0, 0xac,
    0x0c, 0xbf, 0x72, 0xc6, 0x41, 0xbe, 0x01, 0xe2, 0x02, 0x3f,
    0x57, 0x82, 0x47, 0x3f, 0xc1, 0x28, 0x84, 0xbf, 0xf6, 0x52,
    0xbf, 0xbf, 0xd2, 0xdd, 0x42, 0xbf, 0x26, 0x3a, 0x30, 0xbf,
    0xfe, 0x76, 0xdc, 0xbd, 0x89, 0x45, 0x7c, 0x3e, 0x78, 0x76,
    0xa7, 0x3e, 0xef, 0x44, 0x2f, 0x3e, 0xcc, 0x5c, 0xb7, 0x3e,
    0xc3, 0x0b, 0x87, 0x3d, 0x93, 0x81, 0x31, 0xbf, 0x89, 0x74,
    0x01, 0xbf, 0xa4, 0x5e, 0x23, 0xbf, 0x26, 0xc9, 0xd5, 0xbe,
    0xff, 0x67, 0x11, 0xbf, 0x16, 0x93, 0x1e, 0xbf, 0x00, 0x00,
    0x00, 0x00, 0x00, 0x00, 0x00, 0x00, 0x00, 0x00, 0x00, 0x00,
    0x00, 0x00, 0x00, 0x00, 0x00, 0x00, 0x00, 0x00, 0x00, 0x00,
    0x00, 0x00, 0x00, 0x00, 0x00, 0x00, 0x00, 0x00, 0x00, 0x00,
    0x00, 0x00, 0x00, 0x00, 0x00, 0x00, 0x00, 0x00, 0x00, 0x00,
    0x00, 0x00, 0x00, 0x00, 0x00, 0x00, 0x00, 0x00, 0x00, 0x00,
    0x00, 0x00, 0x00, 0x00, 0x00, 0x00, 0x00, 0x00, 0x00, 0x00,
    0x00, 0x00, 0xa0, 0x59, 0xa4, 0xbe, 0x71, 0x99, 0x4c, 0x3e,
    0x9e, 0xa3, 0x52, 0xbe, 0x67, 0xa5, 0xba, 0xbe, 0x7a, 0x3d,
    0x25, 0xbe, 0xd5, 0xef, 0xa8, 0x3e, 0x22, 0xfa, 0x77, 0x3d,
    0x3d, 0xa7, 0x21, 0x3e, 0x01, 0x1f, 0x25, 0x3e, 0xfd, 0x01,
    0xf4, 0xbe, 0x41, 0xbb, 0x46, 0xbe, 0x72, 0x5b, 0x87, 0x3e,
    0x07, 0xf6, 0x29, 0xbe, 0x8c, 0xb7, 0xf2, 0x3e, 0x7c, 0x5d,
    0x9c, 0xbe, 0xe3, 0x01, 0xc7, 0x3e, 0x56, 0x74, 0x85, 0x3e,
    0x24, 0xa0, 0x92, 0x3e, 0x01, 0x5e, 0x97, 0xbe, 0xcd, 0x1c,
    0x32, 0xbe, 0x4c, 0x6e, 0xaf, 0x3e, 0x42, 0xfd, 0x0b, 0xbe,
    0xcf, 0x40, 0xbb, 0x3e, 0x23, 0x2a, 0xec, 0xbd, 0x98, 0xa4,
    0xae, 0x3e, 0x3e, 0x2d, 0x2a, 0x3e, 0x8e, 0xb3, 0xa8, 0x3d,
    0x5f, 0x7d, 0x9f, 0xbd, 0x1d, 0x08, 0x88, 0x3e, 0x75, 0x78,
    0x7b, 0xbe, 0xe3, 0x84, 0xb8, 0xbe, 0x58, 0x7e, 0x35, 0xbe,
    0x73, 0x64, 0x95, 0xbe, 0x37, 0x63, 0x37, 0x3e, 0x51, 0xf1,
    0x0a, 0xbe, 0x2a, 0xb7, 0x7e, 0xbe, 0x6e, 0xb3, 0x2a, 0xbe,
    0x6d, 0xd0, 0xb3, 0x3e, 0xd8, 0xdf, 0x09, 0xbb, 0x3a, 0xb6,
    0x8b, 0x3e, 0xe5, 0xca, 0x6b, 0x3e, 0xd8, 0xf8, 0xe2, 0xbe,
    0x0b, 0xe7, 0xf0, 0xbc, 0x7e, 0xc5, 0x88, 0x3e, 0x3f, 0x6b,
    0xeb, 0xbd, 0xec, 0xa3, 0xcb, 0x3e, 0xdf, 0x06, 0xef, 0xbd,
    0x22, 0xc7, 0xb6, 0x3e, 0xc0, 0x1c, 0x4e, 0x3e, 0x62, 0xae,
    0xa2, 0x3e, 0x73, 0xe4, 0x19, 0xbe, 0x27, 0x80, 0xf5, 0xbd,
    0x94, 0x61, 0xa9, 0x3e, 0x33, 0xf8, 0x00, 0xbe, 0xca, 0xf1,
    0xc3, 0x3e, 0x7f, 0xf5, 0x45, 0xbe, 0xc6, 0xb5, 0xb7, 0x3e,
    0xdf, 0x8b, 0x3d, 0x3e, 0x35, 0x0f, 0x2f, 0x3e, 0x0d, 0x9c,
    0xe3, 0xbd, 0xe4, 0xbd, 0xa4, 0x3e, 0xf8, 0xf9, 0x54, 0xbe,
    0xbe, 0xda, 0x7c, 0xbe, 0x0e, 0xef, 0x6a, 0xbe, 0x4f, 0x8d,
    0x8e, 0xbe, 0xd2, 0x41, 0x20, 0x3e, 0xbf, 0x42, 0x4c, 0xbe,
    0xc6, 0x2b, 0xa2, 0xbe, 0x91, 0x12, 0x87, 0xbe, 0x25, 0x46,
    0xc2, 0x3e, 0x41, 0x87, 0xd2, 0x3d, 0xf2, 0x11, 0xdd, 0x3d,
    0x3b, 0xa7, 0x1e, 0x3e, 0x82, 0xc8, 0xa3, 0xbe, 0xc3, 0x79,
    0xc5, 0xbd, 0x37, 0x30, 0x86, 0x3e, 0x31, 0x1b, 0x14, 0xbb,
    0x8e, 0xf9, 0xf3, 0x3e, 0x57, 0x5f, 0x66, 0xbe, 0xd4, 0xb1,
    0xa1, 0x3e, 0x64, 0x44, 0x75, 0xbe, 0x6d, 0x0f, 0x27, 0x3e,
    0xa5, 0xf8, 0x47, 0xbe, 0x39, 0x62, 0xc7, 0xbe, 0xc4, 0x13,
    0x7c, 0xbe, 0xa7, 0x6d, 0x95, 0x3e, 0x12, 0x36, 0x48, 0x3e,
    0xb5, 0xc4, 0x25, 0x3e, 0x0a, 0xcd, 0x60, 0x3d, 0x72, 0x66,
    0xbf, 0xbe, 0x79, 0x80, 0x66, 0x3d, 0x2b, 0xf4, 0xc5, 0x3e,
    0x06, 0x49, 0x03, 0xbe, 0xfd, 0x0c, 0xe3, 0x3e, 0x6a, 0x8c,
    0x69, 0xbe, 0x33, 0x56, 0xac, 0x3e, 0xcd, 0x65, 0x96, 0x3e,
    0xa7, 0x3e, 0xa5, 0x3e, 0x5c, 0x67, 0x6b, 0xbe, 0xe8, 0x8b,
    0x94, 0xbe, 0xad, 0xe9, 0xb7, 0x3e, 0x80, 0xa8, 0xd9, 0xbd,
    0x23, 0x3e, 0xab, 0x3e, 0xcb, 0x6a, 0x7c, 0xbe, 0xc7, 0x2c,
    0x9a, 0x3e, 0x6c, 0x79, 0x3f, 0x3e, 0x5a, 0x31, 0x91, 0x3e,
    0xa9, 0xf3, 0x2b, 0xbd, 0xbf, 0xda, 0x9c, 0x3e, 0x9f, 0x42,
    0x8b, 0xbe, 0x39, 0x42, 0x99, 0xbe, 0x52, 0xff, 0x54, 0xbe,
    0x56, 0x86, 0xef, 0xbe, 0xff, 0xec, 0x0e, 0x3e, 0x6e, 0xe2,
    0xb4, 0xbe, 0x9f, 0xa2, 0xc6, 0xbe, 0x77, 0x7c, 0x39, 0xbe,
    0x91, 0x09, 0x75, 0x3e, 0x76, 0x92, 0xf0, 0x3d, 0x7e, 0x66,
    0x37, 0x3e, 0xba, 0x6f, 0xa8, 0x3d, 0xe1, 0xd4, 0xd1, 0xbe,
    0x4e, 0xa6, 0xe7, 0xbd, 0x8e, 0xa2, 0xc1, 0x3e, 0xec, 0x2f,
    0x16, 0xbe, 0xa6, 0x47, 0xf0, 0x3e, 0x3d, 0x96, 0x76, 0xbe,
    0xc6, 0x1b, 0x87, 0x3e, 0xff, 0xd2, 0x96, 0x3e, 0x8b, 0xa0,
    0xb4, 0x3e, 0x94, 0x3d, 0x4d, 0xbe, 0x70, 0x57, 0x4e, 0xbe,
    0x42, 0x20, 0xc2, 0x3e, 0xff, 0x2f, 0xc2, 0xbd, 0xb7, 0xf7,
    0xca, 0x3e, 0xc1, 0x52, 0x20, 0xbe, 0x00, 0xf2, 0xa6, 0x3e,
    0x9b, 0x97, 0x6d, 0x3e, 0x35, 0xce, 0x94, 0x3d, 0xf6, 0x2b,
    0x5f, 0xbd, 0x15, 0x10, 0x90, 0x3e, 0xca, 0x95, 0x88, 0xbe,
    0x73, 0xba, 0xb8, 0xbe, 0xf3, 0x21, 0x4c, 0xbe, 0xcb, 0xb8,
    0xaf, 0xbe, 0x30, 0x55, 0x43, 0x3e, 0xfd, 0x7f, 0x5e, 0xbe,
    0x3e, 0xed, 0x95, 0xbe, 0x54, 0x0c, 0xe3, 0xbd, 0x34, 0x3b,
    0xf5, 0x3d, 0xf2, 0x36, 0x5b, 0x3e, 0x8a, 0x46, 0x09, 0x3e,
    0x64, 0x95, 0x6b, 0xbd, 0xc7, 0x58, 0x7f, 0xbe, 0x38, 0xac,
    0x0d, 0x3e, 0xb2, 0x03, 0x9b, 0x3e, 0xb4, 0x3c, 0x55, 0xbe,
    0x6b, 0x18, 0x99, 0x3e, 0x94, 0xfd, 0x15, 0xbe, 0x22, 0x93,
    0x4e, 0x3e, 0xa7, 0x92, 0x97, 0xbe, 0xe9, 0x46, 0x11, 0x3e,
    0xed, 0x3a, 0xd4, 0xbe, 0x3d, 0x48, 0x9f, 0xbe, 0x68, 0x39,
    0x70, 0xbe, 0x0b, 0x30, 0x86, 0x3e, 0x49, 0xd3, 0x09, 0x3e,
    0xe6, 0x9f, 0x50, 0x3e, 0x04, 0x6d, 0x05, 0x3e, 0x19, 0x62,
    0x93, 0xbe, 0xe3, 0xea, 0x25, 0x3d, 0x33, 0xd8, 0x80, 0x3e,
    0x25, 0x07, 0x9f, 0xbd, 0x9c, 0x59, 0xe7, 0x3e, 0xcb, 0xc9,
    0x82, 0xbe, 0xbc, 0x19, 0xb6, 0x3e, 0x88, 0xcf, 0x38, 0x3e,
    0x53, 0x3a, 0xcd, 0x3e, 0xc4, 0x8c, 0x48, 0xbe, 0xf3, 0x57,
    0x76, 0xbd, 0x16, 0x8c, 0xa1, 0x3e, 0x3c, 0xe1, 0x70, 0xbe,
    0x86, 0x93, 0x99, 0x3e, 0x84, 0x65, 0x07, 0xbe, 0xea, 0x16,
    0xd8, 0x3e, 0x09, 0x1f, 0x09, 0x3e, 0x5a, 0xd1, 0x9d, 0x3e,
    0x70, 0x34, 0x9e, 0xbd, 0x19, 0xdb, 0x9f, 0x3e, 0x1f, 0x84,
    0x64, 0xbe, 0xd2, 0x40, 0xa4, 0xbe, 0x05, 0x0c, 0x18, 0xbe,
    0x11, 0x1b, 0x94, 0x3e, 0x3a, 0xdc, 0x38, 0x3e, 0x07, 0x05,
    0x8e, 0xbe, 0x44, 0xbd, 0x2e, 0xbe, 0x0b, 0xeb, 0xb4, 0x3e,
    0x93, 0x08, 0x68, 0xbd, 0xf0, 0x73, 0xfd, 0x3e, 0xc9, 0x4e,
    0x42, 0xbe, 0x43, 0x8a, 0xaf, 0x3e, 0xa6, 0x7d, 0x24, 0x3e,
    0xc4, 0xff, 0x39, 0x3d, 0x2b, 0x9d, 0x74, 0xbd, 0xa2, 0xb5,
    0x99, 0x3e, 0xb8, 0x12, 0x7f, 0xbe, 0x7b, 0x1f, 0xa4, 0xbe,
    0x92, 0x15, 0x5e, 0xbe, 0xdc, 0x4c, 0xb9, 0xbe, 0xf4, 0xa0,
    0x6d, 0x3e, 0xce, 0x51, 0xba, 0xbe, 0xc7, 0xd8, 0x97, 0xbe,
    0x5b, 0xa9, 0x25, 0xbe, 0xc8, 0xdc, 0x6d, 0x3e, 0x48, 0x26,
    0x96, 0x3e, 0x03, 0x51, 0x89, 0x3e, 0x8d, 0xf9, 0x12, 0xbd,
    0xf9, 0xc7, 0xa3, 0xbe, 0x55, 0x05, 0x97, 0x3d, 0x64, 0x8d,
    0xa6, 0x3e, 0x9d, 0x2c, 0x50, 0xbe, 0x17, 0x5f, 0xce, 0x3e,
    0x28, 0x79, 0x30, 0xbe, 0xeb, 0x55, 0x51, 0x3e, 0x52, 0x89,
    0xbb, 0x3d, 0xbc, 0x72, 0x26, 0x3d, 0x33, 0xb4, 0x15, 0x3d,
    0xff, 0xb3, 0x7d, 0x3d, 0x19, 0x66, 0x26, 0x3e, 0xf0, 0xab,
    0x97, 0xbe, 0x62, 0xcc, 0x84, 0x3d, 0x29, 0x37, 0x2a, 0xbd,
    0x45, 0x79, 0x81, 0x3d, 0xa3, 0x88, 0x26, 0x3e, 0x38, 0x93,
    0xac, 0xba, 0x25, 0x98, 0x00, 0xbc, 0xf5, 0xc8, 0x35, 0x3d,
    0xdc, 0xa5, 0x31, 0xbd, 0x73, 0xb6, 0x5f, 0xbd, 0xdb, 0x83,
    0xcd, 0xbd, 0x8e, 0x8c, 0x90, 0x3e, 0x23, 0x8b, 0xab, 0x3e,
    0xd2, 0x11, 0xad, 0xbe, 0x7f, 0xe7, 0x60, 0xbe, 0x32, 0x76,
    0xb6, 0x3e, 0x84, 0xd0, 0x75, 0xbd, 0xbc, 0x0a, 0x89, 0x3e,
    0x3b, 0x21, 0x3a, 0xbe, 0x59, 0x3f, 0x72, 0x3e, 0xa7, 0x7e,
    0x52, 0x3e, 0x2a, 0x7e, 0x34, 0x3e, 0xb3, 0xb7, 0x8e, 0xbd,
    0x3e, 0x30, 0x87, 0x3e, 0x12, 0xfc, 0x85, 0xbe, 0x31, 0x7a,
    0xe4, 0xbe, 0xdd, 0x3c, 0x84, 0xbe, 0x64, 0x12, 0xfe, 0xbe,
    0xf5, 0x52, 0xd9, 0xbf, 0x3e, 0x8c, 0xa7, 0xbd, 0x02, 0x96,
    0xc8, 0xbf, 0x9e, 0xcb, 0x11, 0xbf, 0x6f, 0x07, 0x80, 0xbf,
    0xcc, 0x3f, 0xe1, 0xbf, 0xfe, 0x55, 0x1a, 0xbf, 0x93, 0xf6,
    0xf6, 0xbf, 0x61, 0xc0, 0x5f, 0xbf, 0x2a, 0x49, 0x59, 0xbf,
    0xbd, 0x16, 0xb0, 0xbf, 0x1b, 0xe8, 0x00, 0xc0, 0xa8, 0x3b,
    0x79, 0xbf, 0x86, 0xd4, 0xb2, 0xbe, 0xec, 0xa0, 0xcd, 0xbf,
    0x40, 0x80, 0x6c, 0x3d, 0xa9, 0x5c, 0x3d, 0xbd, 0x2c, 0x21,
    0x5b, 0x3d, 0x52, 0xaa, 0x39, 0xbd, 0x30, 0x15, 0x4b, 0x3d,
    0xcc, 0x94, 0x4a, 0x3d, 0xc8, 0x23, 0x39, 0xbd, 0xce, 0x27,
    0x58, 0x3d, 0xc0, 0x5f, 0x3a, 0xbd, 0x37, 0xf0, 0x54, 0x3d,
    0x34, 0xc2, 0x6d, 0x3d, 0x70, 0x38, 0x31, 0xbd, 0x05, 0x09,
    0x32, 0xbd, 0xe1, 0x05, 0x41, 0x3d, 0x05, 0xf2, 0xfb, 0xbc,
    0x7d, 0x95, 0x52, 0xbd, 0x12, 0xd9, 0x03, 0xbd, 0xb3, 0x87,
    0x39, 0x3d, 0xee, 0x9b, 0xf4, 0xbc, 0x3b, 0xfd, 0x24, 0x3d,
    0x88, 0x54, 0x08, 0xbd, 0x37, 0x26, 0x1b, 0xbd, 0xe9, 0xa6,
    0x3b, 0x3d, 0x68, 0x11, 0x1b, 0xbd, 0x57, 0x2e, 0x42, 0x3d,
    0x93, 0xe6, 0x32, 0xbd, 0x4c, 0x42, 0x15, 0xbd, 0x5d, 0xbb,
    0x23, 0x3d, 0x5d, 0x1c, 0x35, 0x3d, 0xea, 0x37, 0x25, 0xbd,
    0x14, 0x2b, 0xbe, 0x3b, 0x46, 0x21, 0x44, 0x3d, 0x39, 0x80,
    0x6c, 0xbd, 0xc4, 0x5c, 0x3d, 0x3d, 0x37, 0x21, 0x5b, 0xbd,
    0x56, 0xaa, 0x39, 0x3d, 0x2e, 0x15, 0x4b, 0xbd, 0xe3, 0x94,
    0x4a, 0xbd, 0xc9, 0x23, 0x39, 0x3d, 0xb4, 0x27, 0x58, 0xbd,
    0xd4, 0x5f, 0x3a, 0x3d, 0x45, 0xf0, 0x54, 0xbd, 0x39, 0xc2,
    0x6d, 0xbd, 0x76, 0x38, 0x31, 0x3d, 0x06, 0x09, 0x32, 0x3d,
    0xd7, 0x05, 0x41, 0xbd, 0x13, 0xf2, 0xfb, 0x3c, 0x86, 0x95,
    0x52, 0x3d, 0x10, 0xd9, 0x03, 0x3d, 0xb4, 0x87, 0x39, 0xbd,
    0xf4, 0x9b, 0xf4, 0x3c, 0x2b, 0xfd, 0x24, 0xbd, 0x94, 0x54,
    0x08, 0x3d, 0x40, 0x26, 0x1b, 0x3d, 0xdd, 0xa6, 0x3b,
    0xbd, 0x61, 0x11, 0x1b, 0x3d, 0x52, 0x2e, 0x42, 0xbd,
    0x75, 0xe6, 0x32, 0x3d, 0x5b, 0x42, 0x15, 0x3d, 0x4d,
    0xbb, 0x23, 0xbd, 0x50, 0x1c, 0x35, 0xbd, 0xdc, 0x37,
    0x25, 0x3d, 0x20, 0x2b, 0xbe, 0xbb, 0x4f, 0x21, 0x44,
    0xbd, 0x03, 0x87, 0x66, 0xbd, 0xb5, 0x88, 0x66, 0x3d
  };

  return AI_HANDLE_PTR(s_network_weights);

}

